{
  "vocab_size": 1002,
  "vocab": {
    "\n": 0,
    " ": 1,
    "!": 2,
    "\"": 3,
    ",": 4,
    ".": 5,
    ":": 6,
    "_": 7,
    "،": 8,
    "؟": 9,
    "آ": 10,
    "أ": 11,
    "ؤ": 12,
    "ئ": 13,
    "ا": 14,
    "ب": 15,
    "ة": 16,
    "ت": 17,
    "ث": 18,
    "ج": 19,
    "ح": 20,
    "خ": 21,
    "د": 22,
    "ذ": 23,
    "ر": 24,
    "ز": 25,
    "س": 26,
    "ش": 27,
    "ص": 28,
    "ض": 29,
    "ط": 30,
    "ظ": 31,
    "ع": 32,
    "غ": 33,
    "ـ": 34,
    "ف": 35,
    "ق": 36,
    "ل": 37,
    "م": 38,
    "ن": 39,
    "ه": 40,
    "و": 41,
    "َ": 42,
    "ِ": 43,
    "پ": 44,
    "چ": 45,
    "ژ": 46,
    "ک": 47,
    "گ": 48,
    "ی": 49,
    "ە": 50,
    "‌": 51,
    "ه ": 52,
    "ی ": 53,
    "ر ": 54,
    "ن ": 55,
    "ا ": 56,
    "و ": 57,
    "م ": 58,
    "ز ": 59,
    "د ": 60,
    "ست": 61,
    "ای ": 62,
    "ان": 63,
    "در ": 64,
    "ای": 65,
    "می ": 66,
    "از ": 67,
    "ان ": 68,
    "که ": 69,
    "خو": 70,
    "ار": 71,
    "می": 72,
    "به ": 73,
    "ت ": 74,
    "را": 75,
    "دی": 76,
    "ش ": 77,
    "من ": 78,
    "رو": 79,
    "های ": 80,
    "ده ": 81,
    "را ": 82,
    "ب ": 83,
    "بو": 84,
    "ند": 85,
    "بر ": 86,
    "ری": 87,
    "رد": 88,
    "ل ": 89,
    "فت": 90,
    "با": 91,
    "نگ": 92,
    "ها ": 93,
    "ام": 94,
    "ک ": 95,
    "تو ": 96,
    "اه": 97,
    "آن ": 98,
    "با ": 99,
    "نی": 100,
    "سو": 101,
    "ست ": 102,
    "این ": 103,
    "نه ": 104,
    "گو": 105,
    "ید": 106,
    "ره ": 107,
    "چه ": 108,
    "نا": 109,
    "سی": 110,
    "دو": 111,
    "انه ": 112,
    "ق ": 113,
    "سر": 114,
    "بی": 115,
    "شی": 116,
    "..": 117,
    "دا": 118,
    "کو": 119,
    "بی ": 120,
    "س ": 121,
    "او ": 122,
    "زی": 123,
    "گر ": 124,
    "شت": 125,
    "ها": 126,
    "پی": 127,
    "هم": 128,
    "نو": 129,
    "نج": 130,
    "بود": 131,
    "شو": 132,
    "چش": 133,
    "من": 134,
    "تا ": 135,
    "بر": 136,
    "خت": 137,
    "ار ": 138,
    "یک ": 139,
    "تو": 140,
    "در": 141,
    "هر ": 142,
    "خود ": 143,
    "ما": 144,
    "سا": 145,
    "گی": 146,
    "ه های ": 147,
    "اف": 148,
    "ون ": 149,
    "گر": 150,
    "کن": 151,
    "عش": 152,
    "است": 153,
    "شب ": 154,
    "لو": 155,
    "ما ": 156,
    "مر": 157,
    "های": 158,
    "چون ": 159,
    "دل ": 160,
    "م که ": 161,
    "کر": 162,
    "مان ": 163,
    "خواه": 164,
    "اب": 165,
    "دید": 166,
    "ی که ": 167,
    "مان": 168,
    "شد": 169,
    "شت ": 170,
    "او": 171,
    "اه ": 172,
    "لب": 173,
    "مو": 174,
    ", ": 175,
    "سته ": 176,
    "ام ": 177,
    "پر ": 178,
    "جو": 179,
    "مرا ": 180,
    "هم ": 181,
    "گوی": 182,
    "...": 183,
    "اد": 184,
    "نگ ": 185,
    "سر ": 186,
    "خوی": 187,
    "کرد": 188,
    "لب ": 189,
    "شد ": 190,
    "پر": 191,
    "شک": 192,
    "هو": 193,
    "اب ": 194,
    "ند ": 195,
    "دل": 196,
    "ال": 197,
    "روی ": 198,
    "گذ": 199,
    "شب": 200,
    "دار": 201,
    "اره ": 202,
    "عشق ": 203,
    "خام": 204,
    "رفت": 205,
    "چی": 206,
    "دیگر ": 207,
    "م از ": 208,
    "د و ": 209,
    "زن": 210,
    "تر": 211,
    "زند": 212,
    "شع": 213,
    "تن": 214,
    "انی ": 215,
    "خی": 216,
    "آی": 217,
    "چو ": 218,
    "له ": 219,
    "اید ": 220,
    "یک": 221,
    "خامو": 222,
    "دیو": 223,
    "بوس": 224,
    "ه ای ": 225,
    "صد": 226,
    "چشم ": 227,
    "زد": 228,
    "باز ": 229,
    "اک": 230,
    "هر": 231,
    "خت ": 232,
    "سای": 233,
    "اد ": 234,
    "گفت": 235,
    "اند": 236,
    "آو": 237,
    "مع": 238,
    "هست": 239,
    "ی و ": 240,
    "روز": 241,
    "فر": 242,
    "م و ": 243,
    "آن": 244,
    "غ ": 245,
    "سینه ": 246,
    "بار": 247,
    "دو ": 248,
    "سوی ": 249,
    "نش": 250,
    "تا": 251,
    "خش": 252,
    "خویش": 253,
    "م به ": 254,
    "عا": 255,
    "مه ": 256,
    "بست": 257,
    "نیست": 258,
    "پنج": 259,
    "کش": 260,
    "یر": 261,
    "مرد": 262,
    "دری": 263,
    "آت": 264,
    "آس": 265,
    "بوسه ": 266,
    "هان ": 267,
    "نمی ": 268,
    "تار": 269,
    "نگاه ": 270,
    "... ": 271,
    "مت ": 272,
    "ایی": 273,
    "دست": 274,
    "هی": 275,
    "آم": 276,
    "گ ": 277,
    "عط": 278,
    "ف ": 279,
    "ج ": 280,
    "خد": 281,
    "آغ": 282,
    "افت": 283,
    "گری": 284,
    "همه ": 285,
    "خ ": 286,
    "آلو": 287,
    "روی": 288,
    "انی": 289,
    "کا": 290,
    "اهی ": 291,
    "فری": 292,
    "مید": 293,
    "لی ": 294,
    "رز": 295,
    "سی ": 296,
    "چ ": 297,
    "راه ": 298,
    "ترا ": 299,
    "نی ": 300,
    "فته ": 301,
    "آه ": 302,
    "سب": 303,
    "لح": 304,
    "شی ": 305,
    "جز ": 306,
    "خسته ": 307,
    "شا": 308,
    "لحظ": 309,
    "است ": 310,
    "دست ": 311,
    "گی ": 312,
    "خور": 313,
    "رنگ ": 314,
    "تی": 315,
    "خانه ": 316,
    "زار": 317,
    "ری ": 318,
    "سوز": 319,
    "رم": 320,
    "که در ": 321,
    "تما": 322,
    "شاید ": 323,
    "دیده ": 324,
    "کن ": 325,
    "ح ": 326,
    "گرد": 327,
    "نق": 328,
    "آرا": 329,
    "میان ": 330,
    "بود ": 331,
    "یا ": 332,
    "میک": 333,
    "می خو": 334,
    "انم ": 335,
    "ایی ": 336,
    "پنجره ": 337,
    "ستاره ": 338,
    "بار ": 339,
    "هی ": 340,
    "رم ": 341,
    "لی": 342,
    "سایه ": 343,
    "عشق": 344,
    "نف": 345,
    "زی ": 346,
    "روش": 347,
    "قلب ": 348,
    "کی ": 349,
    "درو": 350,
    "فت ": 351,
    "پو": 352,
    "ظل": 353,
    "صو": 354,
    "چرا ": 355,
    "گاه ": 356,
    "آسمان ": 357,
    "زه ": 358,
    "آغو": 359,
    "اری ": 360,
    "گشت": 361,
    "نده ": 362,
    "خا": 363,
    "طو": 364,
    "سکو": 365,
    "وح": 366,
    "عطر ": 367,
    "تیره ": 368,
    "دیم": 369,
    "شان ": 370,
    "ال ": 371,
    "آه": 372,
    "پشت ": 373,
    "شود": 374,
    "به": 375,
    "ط ": 376,
    "خاموش": 377,
    "نم": 378,
    "افسو": 379,
    "اده ": 380,
    "مست": 381,
    "کی": 382,
    "د از ": 383,
    "اندی": 384,
    "دنی": 385,
    "مین ": 386,
    "هیچ ": 387,
    "حر": 388,
    "اگر ": 389,
    "و در ": 390,
    "م در ": 391,
    "خواب ": 392,
    "آش": 393,
    "چشم": 394,
    "آلود": 395,
    "گوش ": 396,
    "پای ": 397,
    "زیر ": 398,
    "من به ": 399,
    "پای": 400,
    "کرده ": 401,
    "نا ": 402,
    "دیوانه ": 403,
    "گان ": 404,
    "شه ": 405,
    "بگذ": 406,
    "نسی": 407,
    "تل": 408,
    "نون ": 409,
    "شاخ": 410,
    "من از ": 411,
    "آمد": 412,
    "باز": 413,
    "گونه ": 414,
    "درد ": 415,
    "آتش ": 416,
    "از": 417,
    "پس ": 418,
    "مث": 419,
    "مثل ": 420,
    "راز ": 421,
    "اما ": 422,
    "گویی ": 423,
    "شعله ": 424,
    "صدای ": 425,
    "تمام ": 426,
    "قص": 427,
    "نگی": 428,
    "مح": 429,
    "نم ": 430,
    "خدا ": 431,
    "حسر": 432,
    "ش از ": 433,
    "زنده ": 434,
    "می خواه": 435,
    "باد ": 436,
    "تاریک": 437,
    "در ک": 438,
    "غرو": 439,
    "آب ": 440,
    "خون ": 441,
    "نه": 442,
    "غم ": 443,
    "ظلمت ": 444,
    "یم ": 445,
    "هستی ": 446,
    "بع": 447,
    "میکن": 448,
    "شرا": 449,
    "داد": 450,
    "مش": 451,
    "سم ": 452,
    "روز ": 453,
    "کسی ": 454,
    "گل": 455,
    "ش را": 456,
    "امی": 457,
    "نین ": 458,
    "سرد": 459,
    "تش": 460,
    "آید": 461,
    "یی ": 462,
    "عاش": 463,
    "سکوت ": 464,
    "بت ": 465,
    "پا ": 466,
    "همچو ": 467,
    "دور ": 468,
    "آفت": 469,
    "سرد ": 470,
    "یر ": 471,
    "کر ": 472,
    "زد ": 473,
    "تی ": 474,
    "درد": 475,
    "لرز": 476,
    "می خ": 477,
    "می تو": 478,
    "انم": 479,
    "غم": 480,
    "کوچه ": 481,
    "یم": 482,
    "را به ": 483,
    "سوخت": 484,
    "دام": 485,
    "یاد ": 486,
    "و م": 487,
    "د که ": 488,
    "لحظه ": 489,
    "خورشی": 490,
    "زندگی ": 491,
    "باید ": 492,
    "شید": 493,
    "سخت ": 494,
    "دیگر": 495,
    "خیره ": 496,
    "دوز": 497,
    "اق": 498,
    "در آن ": 499,
    "شهر ": 500,
    "هره ": 501,
    "نام": 502,
    "درون ": 503,
    "بودم": 504,
    "قه ": 505,
    "ور ": 506,
    "کوچ": 507,
    "گاه": 508,
    "خورشید ": 509,
    "برد": 510,
    "جا ": 511,
    "در ج": 512,
    "نور ": 513,
    "گل ": 514,
    "دگر ": 515,
    "پا": 516,
    "بخ": 517,
    "کاش ": 518,
    "زمین ": 519,
    "انت": 520,
    "پری": 521,
    "آنج": 522,
    "نمی": 523,
    "ریخت": 524,
    "وق": 525,
    "خواهد ": 526,
    "سرا": 527,
    "شم": 528,
    "پرده ": 529,
    "پر از ": 530,
    "مرده ": 531,
    "ادی ": 532,
    "از تو ": 533,
    "آینه ": 534,
    "باد": 535,
    "می توان ": 536,
    "تر ": 537,
    "وای ": 538,
    "اکنون ": 539,
    "بان ": 540,
    "نیست ": 541,
    "دان": 542,
    "حسرت ": 543,
    "هرگ": 544,
    "د به ": 545,
    "سل": 546,
    "اص": 547,
    "بان": 548,
    "بیهو": 549,
    "دور": 550,
    "خویش ": 551,
    "طره ": 552,
    "خال": 553,
    "هایم ": 554,
    "گیسو": 555,
    "ماه ": 556,
    "در دل ": 557,
    "نهان ": 558,
    "چهره ": 559,
    "دم ": 560,
    "خنده ": 561,
    "لغ": 562,
    "سخ": 563,
    "می رو": 564,
    "کار": 565,
    "این": 566,
    "زم": 567,
    "تشنه ": 568,
    "تن ": 569,
    "ها را ": 570,
    "خاک": 571,
    "آب": 572,
    "تاب": 573,
    "کردم": 574,
    "شاخه ": 575,
    "بند": 576,
    "زر": 577,
    "مرد ": 578,
    "آغوش ": 579,
    "بیگ": 580,
    "کود": 581,
    "گرفت": 582,
    "ناگ": 583,
    "بس ": 584,
    "فرو ": 585,
    "بید": 586,
    "زار ": 587,
    "آرز": 588,
    "بگ": 589,
    "بانگ ": 590,
    "خاک ": 591,
    "زاران ": 592,
    "خواب": 593,
    "نج ": 594,
    "باشد": 595,
    "نگاه": 596,
    "دارم": 597,
    "چر": 598,
    "پیچ": 599,
    "چرا": 600,
    "وا": 601,
    "دامن ": 602,
    "ناله ": 603,
    "نان ": 604,
    "فش": 605,
    "رس": 606,
    "دلم ": 607,
    "آفتاب ": 608,
    "داشت": 609,
    "خاموش ": 610,
    "آخ": 611,
    "کوچک ": 612,
    "نفس ": 613,
    "چگونه ": 614,
    "کس ": 615,
    "نقش ": 616,
    "آیا ": 617,
    "هر چه ": 618,
    "به ج": 619,
    "زو": 620,
    "لیک ": 621,
    "نام ": 622,
    "شعر ": 623,
    "سبز ": 624,
    "اع": 625,
    "تنهای": 626,
    "ی در ": 627,
    "راه": 628,
    "دار ": 629,
    "هایت ": 630,
    "اش": 631,
    "نیمه ": 632,
    "خلو": 633,
    "اندو": 634,
    "قدر ": 635,
    "آنکه ": 636,
    "نگین ": 637,
    "دم": 638,
    "زین ": 639,
    "شنا": 640,
    "دخت": 641,
    "زمان ": 642,
    "شوق ": 643,
    "هزاران ": 644,
    "ی از ": 645,
    "باره ": 646,
    "چشمان ": 647,
    "دنیا ": 648,
    "در این ": 649,
    "ناه ": 650,
    "بعد از ": 651,
    "های م": 652,
    "خود را ": 653,
    "ربه ": 654,
    "رفته ": 655,
    "و از ": 656,
    "ده است": 657,
    "طف": 658,
    "ناز": 659,
    "مست ": 660,
    "چنان ": 661,
    "کز ": 662,
    "زن ": 663,
    "هنه ": 664,
    "سیاه": 665,
    "اری": 666,
    "روح ": 667,
    "آن روز": 668,
    "میکند": 669,
    "دارد": 670,
    "جست": 671,
    "کنم ": 672,
    "پرو": 673,
    "نها": 674,
    "یان ": 675,
    "روشن ": 676,
    "گور ": 677,
    "به من ": 678,
    "تنها ": 679,
    "ها که ": 680,
    "له های ": 681,
    "کند": 682,
    "ان را": 683,
    "نور": 684,
    "برای ": 685,
    "بند ": 686,
    "مانده ": 687,
    "ید ": 688,
    "چه می ": 689,
    "خود": 690,
    "جام": 691,
    "غر": 692,
    "هرگز ": 693,
    "ترانه ": 694,
    "دیدم که ": 695,
    "ده ای ": 696,
    "ترس": 697,
    "راز": 698,
    "زیب": 699,
    "قلب": 700,
    "باغ ": 701,
    "پیکر": 702,
    "اش ": 703,
    "جام ": 704,
    "باز هم ": 705,
    "ستم ": 706,
    "پیو": 707,
    "قطره ": 708,
    "عاق": 709,
    "بخش": 710,
    "کو ": 711,
    "ته ": 712,
    "باغ": 713,
    "لر": 714,
    "دوست ": 715,
    "تاریکی": 716,
    "ای م": 717,
    "موج ": 718,
    "بگوی": 719,
    "شبی ": 720,
    "گن": 721,
    "بستر ": 722,
    "جان ": 723,
    "اند ": 724,
    "نسیم ": 725,
    "شه های ": 726,
    "رین ": 727,
    "گو ": 728,
    "درخت": 729,
    "تی که ": 730,
    "گشته ": 731,
    "کجا ": 732,
    "زید": 733,
    "شین ": 734,
    "کنم": 735,
    "بر لب": 736,
    "حل": 737,
    "می آید": 738,
    "خفته ": 739,
    "از این ": 740,
    "زنج": 741,
    "بیهوده ": 742,
    "تا که ": 743,
    "هنو": 744,
    "آه ای ": 745,
    "عاشق ": 746,
    "برگ": 747,
    "آرام ": 748,
    "ساح": 749,
    "خوشب": 750,
    "بیم": 751,
    "وحشت ": 752,
    "صب": 753,
    "چیزی ": 754,
    "را در ": 755,
    "نار ": 756,
    "آنجا ": 757,
    "اشک ": 758,
    "قف": 759,
    "ده در ": 760,
    "ده": 761,
    "ندا": 762,
    "چیست ": 763,
    "اشک": 764,
    "م ز ": 765,
    "می کش": 766,
    "رنگ": 767,
    "تاب ": 768,
    "کت ": 769,
    "صدا ": 770,
    "دود ": 771,
    "و به ": 772,
    "قی": 773,
    "می آی": 774,
    "یدم": 775,
    "چشمان": 776,
    "دوباره ": 777,
    "حاص": 778,
    "تاریک ": 779,
    "فریاد ": 780,
    "لای ": 781,
    "دریغ": 782,
    "دان ": 783,
    "خشک ": 784,
    "ای ب": 785,
    "بگذار ": 786,
    "ی را": 787,
    "شته ": 788,
    "عاقبت ": 789,
    "از آن ": 790,
    "ستان": 791,
    "فرا": 792,
    "ضربه ": 793,
    "آرام": 794,
    "ع ": 795,
    "سال": 796,
    "ه ی ": 797,
    "افتاد": 798,
    "آسمان": 799,
    "لذ": 800,
    "نال": 801,
    "م را": 802,
    "سیاهی ": 803,
    "دیدگان ": 804,
    "مت": 805,
    "تصو": 806,
    "بروی ": 807,
    "سرگرد": 808,
    "بوی ": 809,
    "امی ": 810,
    "سوزان ": 811,
    "ها و ": 812,
    "تب": 813,
    "نبا": 814,
    "شمع": 815,
    "هار ": 816,
    "امید ": 817,
    "سوزنده ": 818,
    "سرخ": 819,
    "مرگ ": 820,
    "دی ": 821,
    "آخر ": 822,
    "چه قدر ": 823,
    "انگی": 824,
    "ده ای": 825,
    "ترا": 826,
    "خبر ": 827,
    "حلقه ": 828,
    "دیوار": 829,
    "امید": 830,
    "سان ": 831,
    "من که ": 832,
    "بر آن ": 833,
    "چرخ": 834,
    "آبی ": 835,
    "انتظ": 836,
    "که از ": 837,
    "خل": 838,
    "به روی ": 839,
    "من و ": 840,
    "مهر": 841,
    "بسته ": 842,
    "زان ": 843,
    "گم ": 844,
    "ناگهان ": 845,
    "کرد ": 846,
    "تب ": 847,
    "تنهایی": 848,
    "تو در ": 849,
    "می ر": 850,
    "گرد ": 851,
    "فکر ": 852,
    "گمش": 853,
    "گنج": 854,
    "ایم ": 855,
    "نگر": 856,
    "ابر": 857,
    "جاو": 858,
    "ره": 859,
    "داغ ": 860,
    "با من ": 861,
    "نشسته ": 862,
    "وقتی که ": 863,
    "فر ": 864,
    "اندوه ": 865,
    "ندی": 866,
    "طوف": 867,
    "می گ": 868,
    "می رفت": 869,
    "گه ": 870,
    "خواهم ": 871,
    "گم": 872,
    "سپ": 873,
    "م تا ": 874,
    "بسوی ": 875,
    "کار ": 876,
    "شراب ": 877,
    "شان": 878,
    "شیط": 879,
    "بر او ": 880,
    "ما را ": 881,
    "آری ": 882,
    "دیدم": 883,
    "گنه ": 884,
    "ساحل ": 885,
    "اح": 886,
    "سنگ": 887,
    "گین ": 888,
    "آنها ": 889,
    "تلخ ": 890,
    "گیر": 891,
    "زم ": 892,
    "در میان ": 893,
    "بودم ": 894,
    "لا": 895,
    "سران": 896,
    "سح": 897,
    "وی ": 898,
    "اندم": 899,
    "عم": 900,
    "راهی ": 901,
    "سخن ": 902,
    "چو": 903,
    "؟ ": 904,
    "صور": 905,
    "حیر": 906,
    "گرم ": 907,
    "می کرد": 908,
    "غبار ": 909,
    "یدند": 910,
    "کس": 911,
    ": ": 912,
    "لحظه ای ": 913,
    "ات": 914,
    "تازه ": 915,
    "فی ": 916,
    "ور": 917,
    "پاک": 918,
    "چنین ": 919,
    "آهسته ": 920,
    "چیز ": 921,
    "ارم": 922,
    "سرو": 923,
    "را که ": 924,
    "ست و ": 925,
    "بی خبر ": 926,
    "دوزخ ": 927,
    "مرا": 928,
    "خورشید": 929,
    "شادی ": 930,
    "ولی ": 931,
    "دام ": 932,
    "یافت": 933,
    "پیش ": 934,
    "کهنه ": 935,
    "جوی ": 936,
    "فرو": 937,
    "رها ": 938,
    "نفس": 939,
    "سایه های ": 940,
    "بازی": 941,
    "اینج": 942,
    "شه": 943,
    "پنجه ": 944,
    "دو چشم ": 945,
    "خیال ": 946,
    "پنهان ": 947,
    "وف": 948,
    "انش ": 949,
    "یاد": 950,
    "پایان ": 951,
    "نیمه شب ": 952,
    "ر و ": 953,
    "بد": 954,
    "ست که ": 955,
    "سحر ": 956,
    "ش و ": 957,
    "فرد": 958,
    "میخو": 959,
    "اتا": 960,
    "و س": 961,
    "می ریخت": 962,
    "دانه ": 963,
    "ها رفت": 964,
    "حج": 965,
    "سم": 966,
    "حس ": 967,
    "زنی ": 968,
    "کسی که ": 969,
    "جاده ": 970,
    "اره های ": 971,
    "شوم": 972,
    "ستاره ها ": 973,
    "گرم": 974,
    "همچون ": 975,
    "ماند": 976,
    "جمع": 977,
    "من در ": 978,
    "لبهای ": 979,
    "نت ": 980,
    "ابی ": 981,
    "گفت ": 982,
    "جلو": 983,
    "هایی ": 984,
    "جهان ": 985,
    "بنو": 986,
    "عاشق": 987,
    "می شود": 988,
    "خط": 989,
    "دنبا": 990,
    "را می ": 991,
    "تو می ": 992,
    "بخشی": 993,
    "کاش چون ": 994,
    "پایی": 995,
    "ضط": 996,
    "راب ": 997,
    "مردم": 998,
    "جا": 999,
    "<BOS>": 1000,
    "<EOS>": 1001
  },
  "merges": [
    [
      "ه",
      " "
    ],
    [
      "ی",
      " "
    ],
    [
      "ر",
      " "
    ],
    [
      "ن",
      " "
    ],
    [
      "ا",
      " "
    ],
    [
      "و",
      " "
    ],
    [
      "م",
      " "
    ],
    [
      "ز",
      " "
    ],
    [
      "د",
      " "
    ],
    [
      "س",
      "ت"
    ],
    [
      "ا",
      "ی "
    ],
    [
      "ا",
      "ن"
    ],
    [
      "د",
      "ر "
    ],
    [
      "ا",
      "ی"
    ],
    [
      "م",
      "ی "
    ],
    [
      "ا",
      "ز "
    ],
    [
      "ا",
      "ن "
    ],
    [
      "ک",
      "ه "
    ],
    [
      "خ",
      "و"
    ],
    [
      "ا",
      "ر"
    ],
    [
      "م",
      "ی"
    ],
    [
      "ب",
      "ه "
    ],
    [
      "ت",
      " "
    ],
    [
      "ر",
      "ا"
    ],
    [
      "د",
      "ی"
    ],
    [
      "ش",
      " "
    ],
    [
      "م",
      "ن "
    ],
    [
      "ر",
      "و"
    ],
    [
      "ه",
      "ای "
    ],
    [
      "د",
      "ه "
    ],
    [
      "ر",
      "ا "
    ],
    [
      "ب",
      " "
    ],
    [
      "ب",
      "و"
    ],
    [
      "ن",
      "د"
    ],
    [
      "ب",
      "ر "
    ],
    [
      "ر",
      "ی"
    ],
    [
      "ر",
      "د"
    ],
    [
      "ل",
      " "
    ],
    [
      "ف",
      "ت"
    ],
    [
      "ب",
      "ا"
    ],
    [
      "ن",
      "گ"
    ],
    [
      "ه",
      "ا "
    ],
    [
      "ا",
      "م"
    ],
    [
      "ک",
      " "
    ],
    [
      "ت",
      "و "
    ],
    [
      "ا",
      "ه"
    ],
    [
      "آ",
      "ن "
    ],
    [
      "ب",
      "ا "
    ],
    [
      "ن",
      "ی"
    ],
    [
      "س",
      "و"
    ],
    [
      "ست",
      " "
    ],
    [
      "ای",
      "ن "
    ],
    [
      "ن",
      "ه "
    ],
    [
      "گ",
      "و"
    ],
    [
      "ی",
      "د"
    ],
    [
      "ر",
      "ه "
    ],
    [
      "چ",
      "ه "
    ],
    [
      "ن",
      "ا"
    ],
    [
      "س",
      "ی"
    ],
    [
      "د",
      "و"
    ],
    [
      "ان",
      "ه "
    ],
    [
      "ق",
      " "
    ],
    [
      "س",
      "ر"
    ],
    [
      "ب",
      "ی"
    ],
    [
      "ش",
      "ی"
    ],
    [
      ".",
      "."
    ],
    [
      "د",
      "ا"
    ],
    [
      "ک",
      "و"
    ],
    [
      "ب",
      "ی "
    ],
    [
      "س",
      " "
    ],
    [
      "ا",
      "و "
    ],
    [
      "ز",
      "ی"
    ],
    [
      "گ",
      "ر "
    ],
    [
      "ش",
      "ت"
    ],
    [
      "ه",
      "ا"
    ],
    [
      "پ",
      "ی"
    ],
    [
      "ه",
      "م"
    ],
    [
      "ن",
      "و"
    ],
    [
      "ن",
      "ج"
    ],
    [
      "بو",
      "د"
    ],
    [
      "ش",
      "و"
    ],
    [
      "چ",
      "ش"
    ],
    [
      "م",
      "ن"
    ],
    [
      "ت",
      "ا "
    ],
    [
      "ب",
      "ر"
    ],
    [
      "خ",
      "ت"
    ],
    [
      "ا",
      "ر "
    ],
    [
      "ی",
      "ک "
    ],
    [
      "ت",
      "و"
    ],
    [
      "د",
      "ر"
    ],
    [
      "ه",
      "ر "
    ],
    [
      "خو",
      "د "
    ],
    [
      "م",
      "ا"
    ],
    [
      "س",
      "ا"
    ],
    [
      "گ",
      "ی"
    ],
    [
      "ه ",
      "های "
    ],
    [
      "ا",
      "ف"
    ],
    [
      "و",
      "ن "
    ],
    [
      "گ",
      "ر"
    ],
    [
      "ک",
      "ن"
    ],
    [
      "ع",
      "ش"
    ],
    [
      "ا",
      "ست"
    ],
    [
      "ش",
      "ب "
    ],
    [
      "ل",
      "و"
    ],
    [
      "م",
      "ا "
    ],
    [
      "م",
      "ر"
    ],
    [
      "ه",
      "ای"
    ],
    [
      "چ",
      "ون "
    ],
    [
      "د",
      "ل "
    ],
    [
      "م ",
      "که "
    ],
    [
      "ک",
      "ر"
    ],
    [
      "م",
      "ان "
    ],
    [
      "خو",
      "اه"
    ],
    [
      "ا",
      "ب"
    ],
    [
      "دی",
      "د"
    ],
    [
      "ی ",
      "که "
    ],
    [
      "م",
      "ان"
    ],
    [
      "ش",
      "د"
    ],
    [
      "ش",
      "ت "
    ],
    [
      "ا",
      "و"
    ],
    [
      "ا",
      "ه "
    ],
    [
      "ل",
      "ب"
    ],
    [
      "م",
      "و"
    ],
    [
      ",",
      " "
    ],
    [
      "ست",
      "ه "
    ],
    [
      "ا",
      "م "
    ],
    [
      "پ",
      "ر "
    ],
    [
      "ج",
      "و"
    ],
    [
      "م",
      "را "
    ],
    [
      "ه",
      "م "
    ],
    [
      "گو",
      "ی"
    ],
    [
      "..",
      "."
    ],
    [
      "ا",
      "د"
    ],
    [
      "نگ",
      " "
    ],
    [
      "س",
      "ر "
    ],
    [
      "خو",
      "ی"
    ],
    [
      "ک",
      "رد"
    ],
    [
      "ل",
      "ب "
    ],
    [
      "ش",
      "د "
    ],
    [
      "پ",
      "ر"
    ],
    [
      "ش",
      "ک"
    ],
    [
      "ه",
      "و"
    ],
    [
      "ا",
      "ب "
    ],
    [
      "ن",
      "د "
    ],
    [
      "د",
      "ل"
    ],
    [
      "ا",
      "ل"
    ],
    [
      "رو",
      "ی "
    ],
    [
      "گ",
      "ذ"
    ],
    [
      "ش",
      "ب"
    ],
    [
      "د",
      "ار"
    ],
    [
      "ار",
      "ه "
    ],
    [
      "عش",
      "ق "
    ],
    [
      "خ",
      "ام"
    ],
    [
      "ر",
      "فت"
    ],
    [
      "چ",
      "ی"
    ],
    [
      "دی",
      "گر "
    ],
    [
      "م ",
      "از "
    ],
    [
      "د ",
      "و "
    ],
    [
      "ز",
      "ن"
    ],
    [
      "ت",
      "ر"
    ],
    [
      "ز",
      "ند"
    ],
    [
      "ش",
      "ع"
    ],
    [
      "ت",
      "ن"
    ],
    [
      "ان",
      "ی "
    ],
    [
      "خ",
      "ی"
    ],
    [
      "آ",
      "ی"
    ],
    [
      "چ",
      "و "
    ],
    [
      "ل",
      "ه "
    ],
    [
      "ای",
      "د "
    ],
    [
      "ی",
      "ک"
    ],
    [
      "خام",
      "و"
    ],
    [
      "دی",
      "و"
    ],
    [
      "بو",
      "س"
    ],
    [
      "ه ",
      "ای "
    ],
    [
      "ص",
      "د"
    ],
    [
      "چش",
      "م "
    ],
    [
      "ز",
      "د"
    ],
    [
      "ب",
      "از "
    ],
    [
      "ا",
      "ک"
    ],
    [
      "ه",
      "ر"
    ],
    [
      "خ",
      "ت "
    ],
    [
      "س",
      "ای"
    ],
    [
      "ا",
      "د "
    ],
    [
      "گ",
      "فت"
    ],
    [
      "ان",
      "د"
    ],
    [
      "آ",
      "و"
    ],
    [
      "م",
      "ع"
    ],
    [
      "ه",
      "ست"
    ],
    [
      "ی ",
      "و "
    ],
    [
      "رو",
      "ز"
    ],
    [
      "ف",
      "ر"
    ],
    [
      "م ",
      "و "
    ],
    [
      "آ",
      "ن"
    ],
    [
      "غ",
      " "
    ],
    [
      "سی",
      "نه "
    ],
    [
      "ب",
      "ار"
    ],
    [
      "د",
      "و "
    ],
    [
      "سو",
      "ی "
    ],
    [
      "ن",
      "ش"
    ],
    [
      "ت",
      "ا"
    ],
    [
      "خ",
      "ش"
    ],
    [
      "خوی",
      "ش"
    ],
    [
      "م ",
      "به "
    ],
    [
      "ع",
      "ا"
    ],
    [
      "م",
      "ه "
    ],
    [
      "ب",
      "ست"
    ],
    [
      "نی",
      "ست"
    ],
    [
      "پ",
      "نج"
    ],
    [
      "ک",
      "ش"
    ],
    [
      "ی",
      "ر"
    ],
    [
      "م",
      "رد"
    ],
    [
      "د",
      "ری"
    ],
    [
      "آ",
      "ت"
    ],
    [
      "آ",
      "س"
    ],
    [
      "بوس",
      "ه "
    ],
    [
      "ه",
      "ان "
    ],
    [
      "ن",
      "می "
    ],
    [
      "ت",
      "ار"
    ],
    [
      "نگ",
      "اه "
    ],
    [
      "...",
      " "
    ],
    [
      "م",
      "ت "
    ],
    [
      "ای",
      "ی"
    ],
    [
      "د",
      "ست"
    ],
    [
      "ه",
      "ی"
    ],
    [
      "آ",
      "م"
    ],
    [
      "گ",
      " "
    ],
    [
      "ع",
      "ط"
    ],
    [
      "ف",
      " "
    ],
    [
      "ج",
      " "
    ],
    [
      "خ",
      "د"
    ],
    [
      "آ",
      "غ"
    ],
    [
      "ا",
      "فت"
    ],
    [
      "گ",
      "ری"
    ],
    [
      "هم",
      "ه "
    ],
    [
      "خ",
      " "
    ],
    [
      "آ",
      "لو"
    ],
    [
      "رو",
      "ی"
    ],
    [
      "ان",
      "ی"
    ],
    [
      "ک",
      "ا"
    ],
    [
      "اه",
      "ی "
    ],
    [
      "ف",
      "ری"
    ],
    [
      "می",
      "د"
    ],
    [
      "ل",
      "ی "
    ],
    [
      "ر",
      "ز"
    ],
    [
      "س",
      "ی "
    ],
    [
      "چ",
      " "
    ],
    [
      "را",
      "ه "
    ],
    [
      "ت",
      "را "
    ],
    [
      "ن",
      "ی "
    ],
    [
      "فت",
      "ه "
    ],
    [
      "آ",
      "ه "
    ],
    [
      "س",
      "ب"
    ],
    [
      "ل",
      "ح"
    ],
    [
      "ش",
      "ی "
    ],
    [
      "ج",
      "ز "
    ],
    [
      "خ",
      "سته "
    ],
    [
      "ش",
      "ا"
    ],
    [
      "لح",
      "ظ"
    ],
    [
      "ا",
      "ست "
    ],
    [
      "د",
      "ست "
    ],
    [
      "گ",
      "ی "
    ],
    [
      "خو",
      "ر"
    ],
    [
      "ر",
      "نگ "
    ],
    [
      "ت",
      "ی"
    ],
    [
      "خ",
      "انه "
    ],
    [
      "ز",
      "ار"
    ],
    [
      "ر",
      "ی "
    ],
    [
      "سو",
      "ز"
    ],
    [
      "ر",
      "م"
    ],
    [
      "که ",
      "در "
    ],
    [
      "ت",
      "ما"
    ],
    [
      "ش",
      "اید "
    ],
    [
      "دی",
      "ده "
    ],
    [
      "ک",
      "ن "
    ],
    [
      "ح",
      " "
    ],
    [
      "گ",
      "رد"
    ],
    [
      "ن",
      "ق"
    ],
    [
      "آ",
      "را"
    ],
    [
      "می",
      "ان "
    ],
    [
      "بو",
      "د "
    ],
    [
      "ی",
      "ا "
    ],
    [
      "می",
      "ک"
    ],
    [
      "می ",
      "خو"
    ],
    [
      "ان",
      "م "
    ],
    [
      "ای",
      "ی "
    ],
    [
      "پنج",
      "ره "
    ],
    [
      "ست",
      "اره "
    ],
    [
      "با",
      "ر "
    ],
    [
      "ه",
      "ی "
    ],
    [
      "ر",
      "م "
    ],
    [
      "ل",
      "ی"
    ],
    [
      "سای",
      "ه "
    ],
    [
      "عش",
      "ق"
    ],
    [
      "ن",
      "ف"
    ],
    [
      "ز",
      "ی "
    ],
    [
      "رو",
      "ش"
    ],
    [
      "ق",
      "لب "
    ],
    [
      "ک",
      "ی "
    ],
    [
      "د",
      "رو"
    ],
    [
      "ف",
      "ت "
    ],
    [
      "پ",
      "و"
    ],
    [
      "ظ",
      "ل"
    ],
    [
      "ص",
      "و"
    ],
    [
      "چ",
      "را "
    ],
    [
      "گ",
      "اه "
    ],
    [
      "آس",
      "مان "
    ],
    [
      "ز",
      "ه "
    ],
    [
      "آغ",
      "و"
    ],
    [
      "ار",
      "ی "
    ],
    [
      "گ",
      "شت"
    ],
    [
      "ن",
      "ده "
    ],
    [
      "خ",
      "ا"
    ],
    [
      "ط",
      "و"
    ],
    [
      "س",
      "کو"
    ],
    [
      "و",
      "ح"
    ],
    [
      "عط",
      "ر "
    ],
    [
      "تی",
      "ره "
    ],
    [
      "دی",
      "م"
    ],
    [
      "ش",
      "ان "
    ],
    [
      "ا",
      "ل "
    ],
    [
      "آ",
      "ه"
    ],
    [
      "پ",
      "شت "
    ],
    [
      "شو",
      "د"
    ],
    [
      "ب",
      "ه"
    ],
    [
      "ط",
      " "
    ],
    [
      "خامو",
      "ش"
    ],
    [
      "ن",
      "م"
    ],
    [
      "اف",
      "سو"
    ],
    [
      "ا",
      "ده "
    ],
    [
      "م",
      "ست"
    ],
    [
      "ک",
      "ی"
    ],
    [
      "د ",
      "از "
    ],
    [
      "ان",
      "دی"
    ],
    [
      "د",
      "نی"
    ],
    [
      "می",
      "ن "
    ],
    [
      "هی",
      "چ "
    ],
    [
      "ح",
      "ر"
    ],
    [
      "ا",
      "گر "
    ],
    [
      "و ",
      "در "
    ],
    [
      "م ",
      "در "
    ],
    [
      "خو",
      "اب "
    ],
    [
      "آ",
      "ش"
    ],
    [
      "چش",
      "م"
    ],
    [
      "آلو",
      "د"
    ],
    [
      "گو",
      "ش "
    ],
    [
      "پ",
      "ای "
    ],
    [
      "زی",
      "ر "
    ],
    [
      "من ",
      "به "
    ],
    [
      "پ",
      "ای"
    ],
    [
      "کر",
      "ده "
    ],
    [
      "ن",
      "ا "
    ],
    [
      "دیو",
      "انه "
    ],
    [
      "گ",
      "ان "
    ],
    [
      "ش",
      "ه "
    ],
    [
      "ب",
      "گذ"
    ],
    [
      "ن",
      "سی"
    ],
    [
      "ت",
      "ل"
    ],
    [
      "نو",
      "ن "
    ],
    [
      "شا",
      "خ"
    ],
    [
      "من ",
      "از "
    ],
    [
      "آم",
      "د"
    ],
    [
      "با",
      "ز"
    ],
    [
      "گو",
      "نه "
    ],
    [
      "در",
      "د "
    ],
    [
      "آت",
      "ش "
    ],
    [
      "ا",
      "ز"
    ],
    [
      "پ",
      "س "
    ],
    [
      "م",
      "ث"
    ],
    [
      "مث",
      "ل "
    ],
    [
      "ر",
      "از "
    ],
    [
      "ام",
      "ا "
    ],
    [
      "گوی",
      "ی "
    ],
    [
      "شع",
      "له "
    ],
    [
      "صد",
      "ای "
    ],
    [
      "تما",
      "م "
    ],
    [
      "ق",
      "ص"
    ],
    [
      "نگ",
      "ی"
    ],
    [
      "م",
      "ح"
    ],
    [
      "ن",
      "م "
    ],
    [
      "خد",
      "ا "
    ],
    [
      "ح",
      "سر"
    ],
    [
      "ش ",
      "از "
    ],
    [
      "زن",
      "ده "
    ],
    [
      "می ",
      "خواه"
    ],
    [
      "با",
      "د "
    ],
    [
      "تار",
      "یک"
    ],
    [
      "در ",
      "ک"
    ],
    [
      "غ",
      "رو"
    ],
    [
      "آ",
      "ب "
    ],
    [
      "خو",
      "ن "
    ],
    [
      "ن",
      "ه"
    ],
    [
      "غ",
      "م "
    ],
    [
      "ظل",
      "مت "
    ],
    [
      "ی",
      "م "
    ],
    [
      "هست",
      "ی "
    ],
    [
      "ب",
      "ع"
    ],
    [
      "می",
      "کن"
    ],
    [
      "ش",
      "را"
    ],
    [
      "دا",
      "د"
    ],
    [
      "م",
      "ش"
    ],
    [
      "س",
      "م "
    ],
    [
      "رو",
      "ز "
    ],
    [
      "ک",
      "سی "
    ],
    [
      "گ",
      "ل"
    ],
    [
      "ش ",
      "را"
    ],
    [
      "ا",
      "می"
    ],
    [
      "نی",
      "ن "
    ],
    [
      "س",
      "رد"
    ],
    [
      "ت",
      "ش"
    ],
    [
      "آ",
      "ید"
    ],
    [
      "ی",
      "ی "
    ],
    [
      "عا",
      "ش"
    ],
    [
      "سکو",
      "ت "
    ],
    [
      "ب",
      "ت "
    ],
    [
      "پ",
      "ا "
    ],
    [
      "هم",
      "چو "
    ],
    [
      "دو",
      "ر "
    ],
    [
      "آ",
      "فت"
    ],
    [
      "سر",
      "د "
    ],
    [
      "ی",
      "ر "
    ],
    [
      "ک",
      "ر "
    ],
    [
      "ز",
      "د "
    ],
    [
      "ت",
      "ی "
    ],
    [
      "د",
      "رد"
    ],
    [
      "ل",
      "رز"
    ],
    [
      "می ",
      "خ"
    ],
    [
      "می ",
      "تو"
    ],
    [
      "ان",
      "م"
    ],
    [
      "غ",
      "م"
    ],
    [
      "کو",
      "چه "
    ],
    [
      "ی",
      "م"
    ],
    [
      "را ",
      "به "
    ],
    [
      "سو",
      "خت"
    ],
    [
      "د",
      "ام"
    ],
    [
      "ی",
      "اد "
    ],
    [
      "و ",
      "م"
    ],
    [
      "د ",
      "که "
    ],
    [
      "لحظ",
      "ه "
    ],
    [
      "خور",
      "شی"
    ],
    [
      "زند",
      "گی "
    ],
    [
      "ب",
      "اید "
    ],
    [
      "ش",
      "ید"
    ],
    [
      "س",
      "خت "
    ],
    [
      "دی",
      "گر"
    ],
    [
      "خی",
      "ره "
    ],
    [
      "دو",
      "ز"
    ],
    [
      "ا",
      "ق"
    ],
    [
      "در ",
      "آن "
    ],
    [
      "ش",
      "هر "
    ],
    [
      "ه",
      "ره "
    ],
    [
      "ن",
      "ام"
    ],
    [
      "درو",
      "ن "
    ],
    [
      "بود",
      "م"
    ],
    [
      "ق",
      "ه "
    ],
    [
      "و",
      "ر "
    ],
    [
      "کو",
      "چ"
    ],
    [
      "گ",
      "اه"
    ],
    [
      "خورشی",
      "د "
    ],
    [
      "ب",
      "رد"
    ],
    [
      "ج",
      "ا "
    ],
    [
      "در ",
      "ج"
    ],
    [
      "نو",
      "ر "
    ],
    [
      "گ",
      "ل "
    ],
    [
      "د",
      "گر "
    ],
    [
      "پ",
      "ا"
    ],
    [
      "ب",
      "خ"
    ],
    [
      "کا",
      "ش "
    ],
    [
      "ز",
      "مین "
    ],
    [
      "ان",
      "ت"
    ],
    [
      "پ",
      "ری"
    ],
    [
      "آ",
      "نج"
    ],
    [
      "ن",
      "می"
    ],
    [
      "ری",
      "خت"
    ],
    [
      "و",
      "ق"
    ],
    [
      "خواه",
      "د "
    ],
    [
      "س",
      "را"
    ],
    [
      "ش",
      "م"
    ],
    [
      "پر",
      "ده "
    ],
    [
      "پر ",
      "از "
    ],
    [
      "مر",
      "ده "
    ],
    [
      "اد",
      "ی "
    ],
    [
      "از ",
      "تو "
    ],
    [
      "آی",
      "نه "
    ],
    [
      "با",
      "د"
    ],
    [
      "می تو",
      "ان "
    ],
    [
      "ت",
      "ر "
    ],
    [
      "و",
      "ای "
    ],
    [
      "اک",
      "نون "
    ],
    [
      "ب",
      "ان "
    ],
    [
      "نی",
      "ست "
    ],
    [
      "د",
      "ان"
    ],
    [
      "حسر",
      "ت "
    ],
    [
      "هر",
      "گ"
    ],
    [
      "د ",
      "به "
    ],
    [
      "س",
      "ل"
    ],
    [
      "ا",
      "ص"
    ],
    [
      "ب",
      "ان"
    ],
    [
      "بی",
      "هو"
    ],
    [
      "دو",
      "ر"
    ],
    [
      "خوی",
      "ش "
    ],
    [
      "ط",
      "ره "
    ],
    [
      "خ",
      "ال"
    ],
    [
      "های",
      "م "
    ],
    [
      "گی",
      "سو"
    ],
    [
      "ما",
      "ه "
    ],
    [
      "در ",
      "دل "
    ],
    [
      "ن",
      "هان "
    ],
    [
      "چ",
      "هره "
    ],
    [
      "د",
      "م "
    ],
    [
      "خ",
      "نده "
    ],
    [
      "ل",
      "غ"
    ],
    [
      "س",
      "خ"
    ],
    [
      "می ",
      "رو"
    ],
    [
      "ک",
      "ار"
    ],
    [
      "ای",
      "ن"
    ],
    [
      "ز",
      "م"
    ],
    [
      "تش",
      "نه "
    ],
    [
      "ت",
      "ن "
    ],
    [
      "ها ",
      "را "
    ],
    [
      "خ",
      "اک"
    ],
    [
      "آ",
      "ب"
    ],
    [
      "ت",
      "اب"
    ],
    [
      "کرد",
      "م"
    ],
    [
      "شاخ",
      "ه "
    ],
    [
      "ب",
      "ند"
    ],
    [
      "ز",
      "ر"
    ],
    [
      "مر",
      "د "
    ],
    [
      "آغو",
      "ش "
    ],
    [
      "بی",
      "گ"
    ],
    [
      "کو",
      "د"
    ],
    [
      "گر",
      "فت"
    ],
    [
      "نا",
      "گ"
    ],
    [
      "ب",
      "س "
    ],
    [
      "فر",
      "و "
    ],
    [
      "ب",
      "ید"
    ],
    [
      "ز",
      "ار "
    ],
    [
      "آ",
      "رز"
    ],
    [
      "ب",
      "گ"
    ],
    [
      "بان",
      "گ "
    ],
    [
      "خا",
      "ک "
    ],
    [
      "زار",
      "ان "
    ],
    [
      "خو",
      "اب"
    ],
    [
      "نج",
      " "
    ],
    [
      "با",
      "شد"
    ],
    [
      "نگ",
      "اه"
    ],
    [
      "دار",
      "م"
    ],
    [
      "چ",
      "ر"
    ],
    [
      "پی",
      "چ"
    ],
    [
      "چ",
      "را"
    ],
    [
      "و",
      "ا"
    ],
    [
      "دا",
      "من "
    ],
    [
      "نا",
      "له "
    ],
    [
      "ن",
      "ان "
    ],
    [
      "ف",
      "ش"
    ],
    [
      "ر",
      "س"
    ],
    [
      "دل",
      "م "
    ],
    [
      "آفت",
      "اب "
    ],
    [
      "دا",
      "شت"
    ],
    [
      "خامو",
      "ش "
    ],
    [
      "آ",
      "خ"
    ],
    [
      "کوچ",
      "ک "
    ],
    [
      "نف",
      "س "
    ],
    [
      "چ",
      "گونه "
    ],
    [
      "ک",
      "س "
    ],
    [
      "نق",
      "ش "
    ],
    [
      "آی",
      "ا "
    ],
    [
      "هر ",
      "چه "
    ],
    [
      "به ",
      "ج"
    ],
    [
      "ز",
      "و"
    ],
    [
      "ل",
      "یک "
    ],
    [
      "نا",
      "م "
    ],
    [
      "شع",
      "ر "
    ],
    [
      "سب",
      "ز "
    ],
    [
      "ا",
      "ع"
    ],
    [
      "تن",
      "های"
    ],
    [
      "ی ",
      "در "
    ],
    [
      "را",
      "ه"
    ],
    [
      "دا",
      "ر "
    ],
    [
      "های",
      "ت "
    ],
    [
      "ا",
      "ش"
    ],
    [
      "نی",
      "مه "
    ],
    [
      "خ",
      "لو"
    ],
    [
      "ان",
      "دو"
    ],
    [
      "ق",
      "در "
    ],
    [
      "آن",
      "که "
    ],
    [
      "نگی",
      "ن "
    ],
    [
      "د",
      "م"
    ],
    [
      "زی",
      "ن "
    ],
    [
      "ش",
      "نا"
    ],
    [
      "د",
      "خت"
    ],
    [
      "ز",
      "مان "
    ],
    [
      "شو",
      "ق "
    ],
    [
      "ه",
      "زاران "
    ],
    [
      "ی ",
      "از "
    ],
    [
      "ب",
      "اره "
    ],
    [
      "چش",
      "مان "
    ],
    [
      "دنی",
      "ا "
    ],
    [
      "در ",
      "این "
    ],
    [
      "نا",
      "ه "
    ],
    [
      "بع",
      "د از "
    ],
    [
      "های ",
      "م"
    ],
    [
      "خود ",
      "را "
    ],
    [
      "ر",
      "به "
    ],
    [
      "رفت",
      "ه "
    ],
    [
      "و ",
      "از "
    ],
    [
      "ده ",
      "است"
    ],
    [
      "ط",
      "ف"
    ],
    [
      "نا",
      "ز"
    ],
    [
      "م",
      "ست "
    ],
    [
      "چ",
      "نان "
    ],
    [
      "ک",
      "ز "
    ],
    [
      "ز",
      "ن "
    ],
    [
      "ه",
      "نه "
    ],
    [
      "سی",
      "اه"
    ],
    [
      "ار",
      "ی"
    ],
    [
      "رو",
      "ح "
    ],
    [
      "آن ",
      "روز"
    ],
    [
      "میک",
      "ند"
    ],
    [
      "دار",
      "د"
    ],
    [
      "ج",
      "ست"
    ],
    [
      "کن",
      "م "
    ],
    [
      "پ",
      "رو"
    ],
    [
      "ن",
      "ها"
    ],
    [
      "ی",
      "ان "
    ],
    [
      "روش",
      "ن "
    ],
    [
      "گو",
      "ر "
    ],
    [
      "به ",
      "من "
    ],
    [
      "تن",
      "ها "
    ],
    [
      "ها ",
      "که "
    ],
    [
      "ل",
      "ه های "
    ],
    [
      "ک",
      "ند"
    ],
    [
      "ان ",
      "را"
    ],
    [
      "نو",
      "ر"
    ],
    [
      "بر",
      "ای "
    ],
    [
      "ب",
      "ند "
    ],
    [
      "مان",
      "ده "
    ],
    [
      "ی",
      "د "
    ],
    [
      "چه ",
      "می "
    ],
    [
      "خو",
      "د"
    ],
    [
      "ج",
      "ام"
    ],
    [
      "غ",
      "ر"
    ],
    [
      "هرگ",
      "ز "
    ],
    [
      "تر",
      "انه "
    ],
    [
      "دید",
      "م که "
    ],
    [
      "ده ",
      "ای "
    ],
    [
      "تر",
      "س"
    ],
    [
      "را",
      "ز"
    ],
    [
      "زی",
      "ب"
    ],
    [
      "ق",
      "لب"
    ],
    [
      "با",
      "غ "
    ],
    [
      "پی",
      "کر"
    ],
    [
      "ا",
      "ش "
    ],
    [
      "ج",
      "ام "
    ],
    [
      "باز ",
      "هم "
    ],
    [
      "ست",
      "م "
    ],
    [
      "پی",
      "و"
    ],
    [
      "ق",
      "طره "
    ],
    [
      "عا",
      "ق"
    ],
    [
      "ب",
      "خش"
    ],
    [
      "ک",
      "و "
    ],
    [
      "ت",
      "ه "
    ],
    [
      "با",
      "غ"
    ],
    [
      "ل",
      "ر"
    ],
    [
      "دو",
      "ست "
    ],
    [
      "تاریک",
      "ی"
    ],
    [
      "ای ",
      "م"
    ],
    [
      "مو",
      "ج "
    ],
    [
      "ب",
      "گوی"
    ],
    [
      "ش",
      "بی "
    ],
    [
      "گ",
      "ن"
    ],
    [
      "بست",
      "ر "
    ],
    [
      "ج",
      "ان "
    ],
    [
      "ان",
      "د "
    ],
    [
      "نسی",
      "م "
    ],
    [
      "ش",
      "ه های "
    ],
    [
      "ری",
      "ن "
    ],
    [
      "گ",
      "و "
    ],
    [
      "در",
      "خت"
    ],
    [
      "ت",
      "ی که "
    ],
    [
      "گشت",
      "ه "
    ],
    [
      "ک",
      "جا "
    ],
    [
      "ز",
      "ید"
    ],
    [
      "شی",
      "ن "
    ],
    [
      "کن",
      "م"
    ],
    [
      "بر ",
      "لب"
    ],
    [
      "ح",
      "ل"
    ],
    [
      "می ",
      "آید"
    ],
    [
      "خ",
      "فته "
    ],
    [
      "از ",
      "این "
    ],
    [
      "ز",
      "نج"
    ],
    [
      "بیهو",
      "ده "
    ],
    [
      "تا ",
      "که "
    ],
    [
      "ه",
      "نو"
    ],
    [
      "آ",
      "ه ای "
    ],
    [
      "عاش",
      "ق "
    ],
    [
      "بر",
      "گ"
    ],
    [
      "آرا",
      "م "
    ],
    [
      "سا",
      "ح"
    ],
    [
      "خو",
      "شب"
    ],
    [
      "بی",
      "م"
    ],
    [
      "وح",
      "شت "
    ],
    [
      "ص",
      "ب"
    ],
    [
      "چی",
      "زی "
    ],
    [
      "را ",
      "در "
    ],
    [
      "نا",
      "ر "
    ],
    [
      "آنج",
      "ا "
    ],
    [
      "اش",
      "ک "
    ],
    [
      "ق",
      "ف"
    ],
    [
      "ده ",
      "در "
    ],
    [
      "د",
      "ه"
    ],
    [
      "ند",
      "ا"
    ],
    [
      "چی",
      "ست "
    ],
    [
      "ا",
      "شک"
    ],
    [
      "م ",
      "ز "
    ],
    [
      "می ",
      "کش"
    ],
    [
      "ر",
      "نگ"
    ],
    [
      "ت",
      "اب "
    ],
    [
      "ک",
      "ت "
    ],
    [
      "صد",
      "ا "
    ],
    [
      "دو",
      "د "
    ],
    [
      "و ",
      "به "
    ],
    [
      "ق",
      "ی"
    ],
    [
      "می ",
      "آی"
    ],
    [
      "ید",
      "م"
    ],
    [
      "چش",
      "مان"
    ],
    [
      "دو",
      "باره "
    ],
    [
      "ح",
      "اص"
    ],
    [
      "تار",
      "یک "
    ],
    [
      "فری",
      "اد "
    ],
    [
      "ل",
      "ای "
    ],
    [
      "دری",
      "غ"
    ],
    [
      "د",
      "ان "
    ],
    [
      "خش",
      "ک "
    ],
    [
      "ای ",
      "ب"
    ],
    [
      "بگذ",
      "ار "
    ],
    [
      "ی ",
      "را"
    ],
    [
      "شت",
      "ه "
    ],
    [
      "عاق",
      "بت "
    ],
    [
      "از ",
      "آن "
    ],
    [
      "ست",
      "ان"
    ],
    [
      "ف",
      "را"
    ],
    [
      "ض",
      "ربه "
    ],
    [
      "آرا",
      "م"
    ],
    [
      "ع",
      " "
    ],
    [
      "سا",
      "ل"
    ],
    [
      "ه ",
      "ی "
    ],
    [
      "افت",
      "اد"
    ],
    [
      "آس",
      "مان"
    ],
    [
      "ل",
      "ذ"
    ],
    [
      "نا",
      "ل"
    ],
    [
      "م ",
      "را"
    ],
    [
      "سی",
      "اهی "
    ],
    [
      "دید",
      "گان "
    ],
    [
      "م",
      "ت"
    ],
    [
      "ت",
      "صو"
    ],
    [
      "ب",
      "روی "
    ],
    [
      "سر",
      "گرد"
    ],
    [
      "بو",
      "ی "
    ],
    [
      "ا",
      "می "
    ],
    [
      "سوز",
      "ان "
    ],
    [
      "ها ",
      "و "
    ],
    [
      "ت",
      "ب"
    ],
    [
      "ن",
      "با"
    ],
    [
      "ش",
      "مع"
    ],
    [
      "ها",
      "ر "
    ],
    [
      "امی",
      "د "
    ],
    [
      "سو",
      "زنده "
    ],
    [
      "سر",
      "خ"
    ],
    [
      "مر",
      "گ "
    ],
    [
      "د",
      "ی "
    ],
    [
      "آخ",
      "ر "
    ],
    [
      "چه ",
      "قدر "
    ],
    [
      "ان",
      "گی"
    ],
    [
      "ده ",
      "ای"
    ],
    [
      "ت",
      "را"
    ],
    [
      "خ",
      "بر "
    ],
    [
      "حل",
      "قه "
    ],
    [
      "دیو",
      "ار"
    ],
    [
      "ا",
      "مید"
    ],
    [
      "س",
      "ان "
    ],
    [
      "من ",
      "که "
    ],
    [
      "بر ",
      "آن "
    ],
    [
      "چر",
      "خ"
    ],
    [
      "آ",
      "بی "
    ],
    [
      "انت",
      "ظ"
    ],
    [
      "که ",
      "از "
    ],
    [
      "خ",
      "ل"
    ],
    [
      "به ",
      "روی "
    ],
    [
      "من ",
      "و "
    ],
    [
      "م",
      "هر"
    ],
    [
      "ب",
      "سته "
    ],
    [
      "ز",
      "ان "
    ],
    [
      "گ",
      "م "
    ],
    [
      "ناگ",
      "هان "
    ],
    [
      "کر",
      "د "
    ],
    [
      "ت",
      "ب "
    ],
    [
      "تنهای",
      "ی"
    ],
    [
      "تو ",
      "در "
    ],
    [
      "می ",
      "ر"
    ],
    [
      "گر",
      "د "
    ],
    [
      "ف",
      "کر "
    ],
    [
      "گ",
      "مش"
    ],
    [
      "گ",
      "نج"
    ],
    [
      "ای",
      "م "
    ],
    [
      "نگ",
      "ر"
    ],
    [
      "ا",
      "بر"
    ],
    [
      "ج",
      "او"
    ],
    [
      "ر",
      "ه"
    ],
    [
      "دا",
      "غ "
    ],
    [
      "با ",
      "من "
    ],
    [
      "نش",
      "سته "
    ],
    [
      "وق",
      "تی که "
    ],
    [
      "ف",
      "ر "
    ],
    [
      "اندو",
      "ه "
    ],
    [
      "ن",
      "دی"
    ],
    [
      "طو",
      "ف"
    ],
    [
      "می ",
      "گ"
    ],
    [
      "می ",
      "رفت"
    ],
    [
      "گ",
      "ه "
    ],
    [
      "خواه",
      "م "
    ],
    [
      "گ",
      "م"
    ],
    [
      "س",
      "پ"
    ],
    [
      "م ",
      "تا "
    ],
    [
      "ب",
      "سوی "
    ],
    [
      "ک",
      "ار "
    ],
    [
      "شرا",
      "ب "
    ],
    [
      "ش",
      "ان"
    ],
    [
      "شی",
      "ط"
    ],
    [
      "بر ",
      "او "
    ],
    [
      "ما ",
      "را "
    ],
    [
      "آ",
      "ری "
    ],
    [
      "دید",
      "م"
    ],
    [
      "گ",
      "نه "
    ],
    [
      "ساح",
      "ل "
    ],
    [
      "ا",
      "ح"
    ],
    [
      "س",
      "نگ"
    ],
    [
      "گی",
      "ن "
    ],
    [
      "آن",
      "ها "
    ],
    [
      "تل",
      "خ "
    ],
    [
      "گی",
      "ر"
    ],
    [
      "ز",
      "م "
    ],
    [
      "در ",
      "میان "
    ],
    [
      "بود",
      "م "
    ],
    [
      "ل",
      "ا"
    ],
    [
      "سر",
      "ان"
    ],
    [
      "س",
      "ح"
    ],
    [
      "و",
      "ی "
    ],
    [
      "اند",
      "م"
    ],
    [
      "ع",
      "م"
    ],
    [
      "را",
      "هی "
    ],
    [
      "سخ",
      "ن "
    ],
    [
      "چ",
      "و"
    ],
    [
      "؟",
      " "
    ],
    [
      "صو",
      "ر"
    ],
    [
      "ح",
      "یر"
    ],
    [
      "گر",
      "م "
    ],
    [
      "می ",
      "کرد"
    ],
    [
      "غ",
      "بار "
    ],
    [
      "ید",
      "ند"
    ],
    [
      "ک",
      "س"
    ],
    [
      ":",
      " "
    ],
    [
      "لحظ",
      "ه ای "
    ],
    [
      "ا",
      "ت"
    ],
    [
      "تا",
      "زه "
    ],
    [
      "ف",
      "ی "
    ],
    [
      "و",
      "ر"
    ],
    [
      "پ",
      "اک"
    ],
    [
      "چ",
      "نین "
    ],
    [
      "آه",
      "سته "
    ],
    [
      "چی",
      "ز "
    ],
    [
      "ار",
      "م"
    ],
    [
      "س",
      "رو"
    ],
    [
      "را ",
      "که "
    ],
    [
      "ست ",
      "و "
    ],
    [
      "بی ",
      "خبر "
    ],
    [
      "دوز",
      "خ "
    ],
    [
      "م",
      "را"
    ],
    [
      "خور",
      "شید"
    ],
    [
      "ش",
      "ادی "
    ],
    [
      "و",
      "لی "
    ],
    [
      "دا",
      "م "
    ],
    [
      "ی",
      "افت"
    ],
    [
      "پی",
      "ش "
    ],
    [
      "ک",
      "هنه "
    ],
    [
      "جو",
      "ی "
    ],
    [
      "ف",
      "رو"
    ],
    [
      "ر",
      "ها "
    ],
    [
      "نف",
      "س"
    ],
    [
      "سای",
      "ه های "
    ],
    [
      "با",
      "زی"
    ],
    [
      "ای",
      "نج"
    ],
    [
      "ش",
      "ه"
    ],
    [
      "پنج",
      "ه "
    ],
    [
      "دو ",
      "چشم "
    ],
    [
      "خی",
      "ال "
    ],
    [
      "پ",
      "نهان "
    ],
    [
      "و",
      "ف"
    ],
    [
      "ان",
      "ش "
    ],
    [
      "ی",
      "اد"
    ],
    [
      "پای",
      "ان "
    ],
    [
      "نیمه ",
      "شب "
    ],
    [
      "ر ",
      "و "
    ],
    [
      "ب",
      "د"
    ],
    [
      "ست ",
      "که "
    ],
    [
      "سح",
      "ر "
    ],
    [
      "ش ",
      "و "
    ],
    [
      "ف",
      "رد"
    ],
    [
      "می",
      "خو"
    ],
    [
      "ا",
      "تا"
    ],
    [
      "و ",
      "س"
    ],
    [
      "می ",
      "ریخت"
    ],
    [
      "د",
      "انه "
    ],
    [
      "ها ",
      "رفت"
    ],
    [
      "ح",
      "ج"
    ],
    [
      "س",
      "م"
    ],
    [
      "ح",
      "س "
    ],
    [
      "زن",
      "ی "
    ],
    [
      "کس",
      "ی که "
    ],
    [
      "ج",
      "اده "
    ],
    [
      "ار",
      "ه های "
    ],
    [
      "شو",
      "م"
    ],
    [
      "ستاره ",
      "ها "
    ],
    [
      "گر",
      "م"
    ],
    [
      "هم",
      "چون "
    ],
    [
      "مان",
      "د"
    ],
    [
      "ج",
      "مع"
    ],
    [
      "من ",
      "در "
    ],
    [
      "لب",
      "های "
    ],
    [
      "ن",
      "ت "
    ],
    [
      "ا",
      "بی "
    ],
    [
      "گ",
      "فت "
    ],
    [
      "ج",
      "لو"
    ],
    [
      "های",
      "ی "
    ],
    [
      "ج",
      "هان "
    ],
    [
      "ب",
      "نو"
    ],
    [
      "عاش",
      "ق"
    ],
    [
      "می ",
      "شود"
    ],
    [
      "خ",
      "ط"
    ],
    [
      "د",
      "نبا"
    ],
    [
      "را ",
      "می "
    ],
    [
      "تو ",
      "می "
    ],
    [
      "بخ",
      "شی"
    ],
    [
      "کاش ",
      "چون "
    ],
    [
      "پ",
      "ایی"
    ],
    [
      "ض",
      "ط"
    ],
    [
      "را",
      "ب "
    ],
    [
      "مرد",
      "م"
    ],
    [
      "ج",
      "ا"
    ]
  ]
}